#ifndef ANOMALYMODEL_H
#define ANOMALYMODEL_H

// Modelo treinado para deteccaoo de anomalias na rede
const unsigned int anomaly_model_tflite_len = 4952;
const unsigned char anomaly_model_tflite[] = {
  0x1c, 0x00, 0x00, 0x00, 0x54, 0x46, 0x4c, 0x33, 0x14, 0x00, 0x20, 0x00, 
  0x1c, 0x00, 0x18, 0x00, 0x14, 0x00, 0x10, 0x00, 0x0c, 0x00, 0x00, 0x00, 
  0x08, 0x00, 0x04, 0x00, 0x14, 0x00, 0x00, 0x00, 0x1c, 0x00, 0x00, 0x00, 
  0x8c, 0x00, 0x00, 0x00, 0xe4, 0x00, 0x00, 0x00, 0x5c, 0x09, 0x00, 0x00, 
  0x6c, 0x09, 0x00, 0x00, 0xf4, 0x12, 0x00, 0x00, 0x03, 0x00, 0x00, 0x00, 
  0x01, 0x00, 0x00, 0x00, 0x04, 0x00, 0x00, 0x00, 0x4a, 0xf6, 0xff, 0xff, 
  0x0c, 0x00, 0x00, 0x00, 0x1c, 0x00, 0x00, 0x00, 0x3c, 0x00, 0x00, 0x00, 
  0x0f, 0x00, 0x00, 0x00, 0x73, 0x65, 0x72, 0x76, 0x69, 0x6e, 0x67, 0x5f, 
  0x64, 0x65, 0x66, 0x61, 0x75, 0x6c, 0x74, 0x00, 0x01, 0x00, 0x00, 0x00, 
  0x04, 0x00, 0x00, 0x00, 0x90, 0xff, 0xff, 0xff, 0x13, 0x00, 0x00, 0x00, 
  0x04, 0x00, 0x00, 0x00, 0x08, 0x00, 0x00, 0x00, 0x6f, 0x75, 0x74, 0x70, 
  0x75, 0x74, 0x5f, 0x30, 0x00, 0x00, 0x00, 0x00, 0x01, 0x00, 0x00, 0x00, 
  0x04, 0x00, 0x00, 0x00, 0xa6, 0xf7, 0xff, 0xff, 0x04, 0x00, 0x00, 0x00, 
  0x0c, 0x00, 0x00, 0x00, 0x6b, 0x65, 0x72, 0x61, 0x73, 0x5f, 0x74, 0x65, 
  0x6e, 0x73, 0x6f, 0x72, 0x00, 0x00, 0x00, 0x00, 0x02, 0x00, 0x00, 0x00, 
  0x34, 0x00, 0x00, 0x00, 0x04, 0x00, 0x00, 0x00, 0xdc, 0xff, 0xff, 0xff, 
  0x16, 0x00, 0x00, 0x00, 0x04, 0x00, 0x00, 0x00, 0x13, 0x00, 0x00, 0x00, 
  0x43, 0x4f, 0x4e, 0x56, 0x45, 0x52, 0x53, 0x49, 0x4f, 0x4e, 0x5f, 0x4d, 
  0x45, 0x54, 0x41, 0x44, 0x41, 0x54, 0x41, 0x00, 0x08, 0x00, 0x0c, 0x00, 
  0x08, 0x00, 0x04, 0x00, 0x08, 0x00, 0x00, 0x00, 0x15, 0x00, 0x00, 0x00, 
  0x04, 0x00, 0x00, 0x00, 0x13, 0x00, 0x00, 0x00, 0x6d, 0x69, 0x6e, 0x5f, 
  0x72, 0x75, 0x6e, 0x74, 0x69, 0x6d, 0x65, 0x5f, 0x76, 0x65, 0x72, 0x73, 
  0x69, 0x6f, 0x6e, 0x00, 0x17, 0x00, 0x00, 0x00, 0x74, 0x08, 0x00, 0x00, 
  0x6c, 0x08, 0x00, 0x00, 0xdc, 0x07, 0x00, 0x00, 0xc4, 0x05, 0x00, 0x00, 
  0x34, 0x05, 0x00, 0x00, 0xa4, 0x04, 0x00, 0x00, 0x94, 0x02, 0x00, 0x00, 
  0x7c, 0x02, 0x00, 0x00, 0x2c, 0x02, 0x00, 0x00, 0xfc, 0x01, 0x00, 0x00, 
  0xdc, 0x01, 0x00, 0x00, 0xac, 0x01, 0x00, 0x00, 0x5c, 0x01, 0x00, 0x00, 
  0xcc, 0x00, 0x00, 0x00, 0xc4, 0x00, 0x00, 0x00, 0xbc, 0x00, 0x00, 0x00, 
  0xb4, 0x00, 0x00, 0x00, 0xac, 0x00, 0x00, 0x00, 0xa4, 0x00, 0x00, 0x00, 
  0x9c, 0x00, 0x00, 0x00, 0x94, 0x00, 0x00, 0x00, 0x74, 0x00, 0x00, 0x00, 
  0x04, 0x00, 0x00, 0x00, 0x7e, 0xf8, 0xff, 0xff, 0x04, 0x00, 0x00, 0x00, 
  0x60, 0x00, 0x00, 0x00, 0x0c, 0x00, 0x00, 0x00, 0x08, 0x00, 0x0e, 0x00, 
  0x08, 0x00, 0x04, 0x00, 0x08, 0x00, 0x00, 0x00, 0x10, 0x00, 0x00, 0x00, 
  0x28, 0x00, 0x00, 0x00, 0x00, 0x00, 0x06, 0x00, 0x08, 0x00, 0x04, 0x00, 
  0x06, 0x00, 0x00, 0x00, 0x04, 0x00, 0x00, 0x00, 0x01, 0x00, 0x00, 0x00, 
  0xea, 0x03, 0x00, 0x00, 0x0c, 0x00, 0x18, 0x00, 0x14, 0x00, 0x10, 0x00, 
  0x0c, 0x00, 0x04, 0x00, 0x0c, 0x00, 0x00, 0x00, 0x14, 0x68, 0x59, 0x98, 
  0x16, 0x18, 0xaa, 0x95, 0x02, 0x00, 0x00, 0x00, 0x02, 0x00, 0x00, 0x00, 
  0x04, 0x00, 0x00, 0x00, 0x06, 0x00, 0x00, 0x00, 0x32, 0x2e, 0x31, 0x39, 
  0x2e, 0x30, 0x00, 0x00, 0xea, 0xf8, 0xff, 0xff, 0x04, 0x00, 0x00, 0x00, 
  0x10, 0x00, 0x00, 0x00, 0x31, 0x2e, 0x31, 0x34, 0x2e, 0x30, 0x00, 0x00, 
  0x00, 0x00, 0x00, 0x00, 0x00, 0x00, 0x00, 0x00, 0x04, 0xef, 0xff, 0xff, 
  0x08, 0xef, 0xff, 0xff, 0x0c, 0xef, 0xff, 0xff, 0x10, 0xef, 0xff, 0xff, 
  0x14, 0xef, 0xff, 0xff, 0x18, 0xef, 0xff, 0xff, 0x1c, 0xef, 0xff, 0xff, 
  0x22, 0xf9, 0xff, 0xff, 0x04, 0x00, 0x00, 0x00, 0x80, 0x00, 0x00, 0x00, 
  0xca, 0x92, 0x7d, 0x3d, 0xc7, 0x28, 0x21, 0xbe, 0x7d, 0x75, 0x38, 0xbe, 
  0x1f, 0xd4, 0xb8, 0xbd, 0xc9, 0x86, 0xa8, 0x3e, 0x4d, 0xa1, 0xb6, 0xbe, 
  0xd4, 0x94, 0xe3, 0xbe, 0xbc, 0x0f, 0x0b, 0xbf, 0x68, 0x92, 0xa7, 0xbe, 
  0xf7, 0x93, 0x97, 0xbe, 0x98, 0xd8, 0x01, 0xbf, 0xad, 0x5e, 0x29, 0x3e, 
  0x6e, 0x45, 0x81, 0x3c, 0x0a, 0xbe, 0x2d, 0xbf, 0xf8, 0xe4, 0xee, 0x3e, 
  0x2a, 0xb9, 0x1b, 0x3c, 0xc4, 0x04, 0x95, 0x3e, 0x1d, 0x57, 0x02, 0xbf, 
  0x1e, 0x5b, 0x9b, 0x3f, 0x09, 0x83, 0x0e, 0x3e, 0xd6, 0x31, 0x2c, 0x3e, 
  0x21, 0x8b, 0xb1, 0xbe, 0x78, 0x00, 0x96, 0x3f, 0xff, 0x1c, 0xd2, 0xbe, 
  0x58, 0x78, 0xcb, 0xbe, 0x00, 0xba, 0xb4, 0xbc, 0x04, 0x49, 0xf3, 0xbc, 
  0x24, 0xe6, 0x48, 0x3f, 0x05, 0xad, 0x8b, 0x3f, 0x4b, 0xfe, 0x31, 0x3f, 
  0x0f, 0xfd, 0x34, 0xc0, 0x90, 0x00, 0x14, 0xbd, 0xae, 0xf9, 0xff, 0xff, 
  0x04, 0x00, 0x00, 0x00, 0x40, 0x00, 0x00, 0x00, 0x8f, 0x63, 0xc4, 0xbb, 
  0x9c, 0x51, 0x68, 0x3e, 0x5a, 0xb7, 0x82, 0x3e, 0x00, 0x00, 0x00, 0x00, 
  0x00, 0x00, 0x00, 0x00, 0xb5, 0xc9, 0x93, 0x3e, 0x4b, 0x5c, 0x89, 0x3e, 
  0x3c, 0x52, 0x6f, 0x3e, 0x14, 0x07, 0xf7, 0xbb, 0xdb, 0x76, 0x8a, 0x3e, 
  0x35, 0xe2, 0x7b, 0x3e, 0x76, 0x20, 0x3f, 0x3e, 0x00, 0x00, 0x00, 0x00, 
  0xe4, 0xfe, 0x79, 0x3b, 0x05, 0x46, 0x84, 0x3b, 0xfa, 0x17, 0xf2, 0x3c, 
  0xfa, 0xf9, 0xff, 0xff, 0x04, 0x00, 0x00, 0x00, 0x20, 0x00, 0x00, 0x00, 
  0xa6, 0xab, 0xa9, 0xbc, 0x28, 0x50, 0x04, 0x3d, 0x4e, 0x48, 0x4b, 0xbd, 
  0xf0, 0xb5, 0x82, 0x3e, 0x4d, 0xbf, 0x82, 0x3e, 0x29, 0xb2, 0x24, 0xbd, 
  0x2d, 0x3d, 0x80, 0x3e, 0xbb, 0x65, 0x8f, 0xbc, 0x26, 0xfa, 0xff, 0xff, 
  0x04, 0x00, 0x00, 0x00, 0x10, 0x00, 0x00, 0x00, 0xc5, 0x1f, 0xb6, 0xbb, 
  0x2f, 0xa6, 0x7d, 0x3e, 0x38, 0x97, 0x06, 0xbc, 0x2c, 0xb9, 0xc1, 0xbc, 
  0x42, 0xfa, 0xff, 0xff, 0x04, 0x00, 0x00, 0x00, 0x20, 0x00, 0x00, 0x00, 
  0x98, 0xce, 0xa1, 0xbd, 0xed, 0x1f, 0xb0, 0x3d, 0xfb, 0x37, 0xa7, 0xbe, 
  0x01, 0x9f, 0x24, 0x3e, 0x84, 0x57, 0x12, 0xbe, 0x4b, 0x9e, 0xba, 0xbd, 
  0xe6, 0xbf, 0x7b, 0x3e, 0xee, 0x86, 0x54, 0x3e, 0x6e, 0xfa, 0xff, 0xff, 
  0x04, 0x00, 0x00, 0x00, 0x40, 0x00, 0x00, 0x00, 0xfc, 0xa3, 0x70, 0x3e, 
  0x49, 0xdf, 0x91, 0xbe, 0x47, 0xef, 0x5a, 0x3e, 0x76, 0x24, 0xe0, 0xba, 
  0x3b, 0x68, 0x56, 0xbe, 0x00, 0x00, 0x00, 0x00, 0xa1, 0x2e, 0x99, 0xbd, 
  0x00, 0x00, 0x00, 0x00, 0xbb, 0xf1, 0xf8, 0xbd, 0xe0, 0x23, 0xb0, 0x3d, 
  0x00, 0x00, 0x00, 0x00, 0x5b, 0xdc, 0x61, 0x3e, 0x2d, 0x76, 0x7e, 0x3e, 
  0x00, 0x00, 0x00, 0x00, 0xde, 0x74, 0x06, 0xbe, 0x3a, 0x1d, 0x53, 0x3e, 
  0xba, 0xfa, 0xff, 0xff, 0x04, 0x00, 0x00, 0x00, 0x08, 0x00, 0x00, 0x00, 
  0x1e, 0x41, 0x3b, 0xbe, 0x5a, 0x8a, 0x26, 0xbe, 0xce, 0xfa, 0xff, 0xff, 
  0x04, 0x00, 0x00, 0x00, 0x00, 0x02, 0x00, 0x00, 0x70, 0xdb, 0xdb, 0xbd, 
  0xf8, 0xc9, 0xb6, 0xbe, 0xd2, 0x83, 0x2a, 0xbe, 0x48, 0x5d, 0x64, 0xbe, 
  0x14, 0xbc, 0xab, 0x3e, 0x8d, 0x16, 0xd1, 0xbe, 0x0a, 0x1c, 0x89, 0x3d, 
  0x2a, 0xad, 0x19, 0x3e, 0xcd, 0x89, 0x4c, 0xbd, 0x7a, 0x57, 0x2e, 0x3f, 
  0xd0, 0x33, 0xd8, 0x3d, 0x9b, 0x2f, 0x2e, 0x3f, 0x90, 0xe8, 0xd7, 0x3d, 
  0x65, 0xd5, 0x87, 0xbe, 0x5b, 0x30, 0x19, 0x3f, 0x1e, 0x0d, 0xa4, 0xbf, 
  0x88, 0x6c, 0xcf, 0xba, 0x4f, 0x55, 0x77, 0xbc, 0x71, 0xaa, 0xf3, 0x3c, 
  0x2c, 0xb7, 0xa5, 0x3e, 0x04, 0x10, 0x9f, 0x3e, 0x4e, 0x33, 0xbe, 0x3e, 
  0x47, 0x39, 0x1d, 0x3e, 0x27, 0x99, 0x22, 0x3f, 0x55, 0x8b, 0xe2, 0xbe, 
  0x26, 0x5d, 0xe3, 0x3e, 0x50, 0x2d, 0xb0, 0xbe, 0x1d, 0xd0, 0x8c, 0xbc, 
  0x44, 0xb6, 0xda, 0xbe, 0x57, 0x56, 0xe0, 0xbe, 0x97, 0xe1, 0x61, 0x3f, 
  0x9a, 0x93, 0xb0, 0xbf, 0x10, 0x48, 0x4f, 0x3e, 0xf2, 0xd5, 0x96, 0xbe, 
  0xb7, 0xee, 0xcc, 0x3e, 0xc0, 0x03, 0xab, 0xbc, 0xd0, 0x67, 0xf7, 0x3d, 
  0x52, 0x6c, 0xb5, 0xbe, 0xc4, 0x78, 0x0e, 0xbf, 0x46, 0x52, 0x01, 0xbd, 
  0x25, 0xc9, 0xf8, 0x3e, 0x72, 0xfd, 0x15, 0x3f, 0xfb, 0xfc, 0x1f, 0x3e, 
  0x08, 0xd0, 0x1b, 0x3f, 0xec, 0x79, 0xc2, 0x3e, 0x14, 0x28, 0x35, 0xbe, 
  0xf4, 0xa2, 0x64, 0x3f, 0x35, 0x3d, 0x3e, 0xbf, 0x9d, 0x30, 0x59, 0xbe, 
  0x30, 0x68, 0xe4, 0x3e, 0x57, 0xef, 0x12, 0x3f, 0xfc, 0x78, 0x93, 0xbe, 
  0x48, 0xd6, 0xbb, 0x3e, 0x3d, 0x49, 0x71, 0x3d, 0x60, 0x3e, 0x1c, 0x3f, 
  0x44, 0x0b, 0xf2, 0x3e, 0x5d, 0xec, 0x53, 0x3e, 0xe8, 0xfb, 0x6c, 0x3e, 
  0xaa, 0x7f, 0x0f, 0x3f, 0x56, 0xa7, 0xb0, 0x3e, 0xcc, 0x36, 0xbf, 0xbe, 
  0xdd, 0x9e, 0xe9, 0xbd, 0xd7, 0x9e, 0x4a, 0xbf, 0x48, 0x79, 0xac, 0x3f, 
  0xeb, 0x35, 0x8c, 0x3e, 0x8d, 0x96, 0xa3, 0x3e, 0x04, 0x2d, 0x3d, 0x3f, 
  0x00, 0x7e, 0xb5, 0xbd, 0xdc, 0xeb, 0xe8, 0xbe, 0x27, 0x2b, 0x3d, 0x3f, 
  0x3e, 0x9e, 0x2a, 0x3f, 0x5b, 0x50, 0xf2, 0x3e, 0x66, 0xea, 0x0c, 0x3e, 
  0x87, 0xd7, 0x02, 0x3f, 0xfa, 0x4f, 0x76, 0x3e, 0x33, 0xb8, 0x89, 0x3e, 
  0xb8, 0x1c, 0xd5, 0xbe, 0x69, 0xf1, 0x15, 0xbf, 0x19, 0xb2, 0x44, 0xbf, 
  0x1e, 0x48, 0x5e, 0x3f, 0x5d, 0x8a, 0x13, 0xbe, 0xc1, 0x76, 0xc5, 0xbc, 
  0xc4, 0xe1, 0x00, 0xbf, 0xa4, 0xa2, 0xd8, 0x3e, 0xc8, 0x46, 0x60, 0xbe, 
  0x0f, 0x8f, 0xcc, 0x3e, 0x6d, 0xf2, 0xa6, 0x3e, 0xe2, 0x8e, 0xc4, 0x3e, 
  0x41, 0x76, 0xdd, 0xbd, 0x3d, 0x7a, 0xb6, 0xbe, 0x8a, 0xd2, 0x04, 0xbf, 
  0x30, 0x7c, 0xaf, 0x3e, 0xf8, 0x98, 0xa5, 0x3e, 0x23, 0x07, 0xdf, 0xbe, 
  0x12, 0xc9, 0x5c, 0x3d, 0x1a, 0x8b, 0x89, 0x3e, 0x0d, 0x6c, 0x44, 0x3d, 
  0xd2, 0xae, 0x03, 0xbc, 0x79, 0x8a, 0x25, 0x3f, 0xf0, 0x94, 0xb0, 0x3d, 
  0x60, 0xa3, 0xf4, 0xbe, 0xa5, 0x97, 0x66, 0x3e, 0xb0, 0x53, 0x44, 0x3f, 
  0xfc, 0x0b, 0xdd, 0xbd, 0x7d, 0xcd, 0x04, 0xbe, 0xd0, 0x46, 0xfc, 0x3e, 
  0xc8, 0x4d, 0xc5, 0x3e, 0x85, 0x43, 0xa3, 0x3e, 0xac, 0x24, 0xc6, 0x3e, 
  0xb4, 0x10, 0x82, 0xbe, 0x96, 0xd7, 0x2d, 0xbf, 0x36, 0x14, 0x71, 0x3f, 
  0x4c, 0x5c, 0xb3, 0x3e, 0x11, 0x43, 0x67, 0x3e, 0xb1, 0x0e, 0xd0, 0xbc, 
  0xe0, 0x30, 0x3f, 0x3d, 0x1c, 0xb4, 0xac, 0x3e, 0x3e, 0x16, 0xb8, 0xbe, 
  0x15, 0xa5, 0x26, 0x3e, 0x3b, 0x66, 0x6f, 0xbd, 0xe3, 0x27, 0xf8, 0xbe, 
  0xc6, 0xce, 0x00, 0x3f, 0xea, 0xc7, 0x4f, 0x3e, 0x83, 0x50, 0xe8, 0x3e, 
  0x20, 0x49, 0x02, 0x3d, 0x10, 0x09, 0xda, 0x3e, 0xdf, 0x1a, 0x81, 0x3f, 
  0x7d, 0x01, 0xb0, 0xbf, 0xda, 0xfc, 0xff, 0xff, 0x04, 0x00, 0x00, 0x00, 
  0x80, 0x00, 0x00, 0x00, 0x00, 0xa2, 0x37, 0x3e, 0x91, 0x10, 0x21, 0xbf, 
  0xdb, 0x8e, 0x06, 0xbe, 0x55, 0x98, 0x5e, 0x3e, 0xe0, 0x35, 0xa1, 0xbe, 
  0xf8, 0x2c, 0x17, 0x3f, 0x1c, 0xde, 0x88, 0xbe, 0x2b, 0x82, 0x90, 0xbe, 
  0x0e, 0x43, 0x8d, 0xbf, 0x7d, 0x30, 0xcb, 0xbe, 0xdc, 0xb3, 0x9f, 0xbf, 
  0xe1, 0xa4, 0x2e, 0x3f, 0x42, 0x61, 0x53, 0x3f, 0x71, 0x6e, 0xd5, 0xbd, 
  0xfb, 0x7b, 0x37, 0x3f, 0x02, 0x87, 0x6f, 0xbf, 0x9f, 0xe9, 0x11, 0x3f, 
  0x67, 0xf6, 0x87, 0x3f, 0xa2, 0x85, 0x15, 0x3f, 0x3c, 0x3f, 0x1b, 0xbe, 
  0xa8, 0xb5, 0x54, 0x3e, 0x2a, 0xbc, 0x90, 0xbe, 0x1f, 0xe5, 0x88, 0x3e, 
  0x6c, 0x16, 0x5f, 0x3f, 0x75, 0xbe, 0xd3, 0x3e, 0x93, 0x37, 0xa6, 0x3e, 
  0x38, 0x37, 0x02, 0x3f, 0x00, 0x00, 0x49, 0xbe, 0xc4, 0x5a, 0x0c, 0xbf, 
  0x4a, 0x0f, 0xdb, 0xbe, 0x26, 0xac, 0x02, 0xbf, 0x24, 0xf5, 0x15, 0x3f, 
  0x66, 0xfd, 0xff, 0xff, 0x04, 0x00, 0x00, 0x00, 0x80, 0x00, 0x00, 0x00, 
  0xea, 0xaa, 0xe0, 0x3e, 0x2c, 0x82, 0x5a, 0xbf, 0x3c, 0x96, 0x16, 0x3d, 
  0x04, 0x87, 0xe9, 0x3e, 0xf5, 0x24, 0x16, 0xbf, 0x59, 0x3e, 0x3b, 0x3f, 
  0x8e, 0x5f, 0x7f, 0xbf, 0x6c, 0x08, 0xda, 0xbe, 0x93, 0xad, 0xac, 0xbe, 
  0x15, 0x28, 0x27, 0xbf, 0x27, 0x41, 0x26, 0x3e, 0x8f, 0x39, 0xb5, 0x3c, 
  0x2a, 0x67, 0xcc, 0xbe, 0x23, 0xe5, 0x67, 0x3f, 0x0d, 0xa0, 0x0b, 0xbf, 
  0xa4, 0x8f, 0xaf, 0x3e, 0x5e, 0xd8, 0xc0, 0x3e, 0xe8, 0x91, 0x56, 0xbd, 
  0x64, 0x0b, 0xd3, 0x3e, 0x07, 0xf8, 0xc0, 0x3e, 0x89, 0x13, 0x05, 0x3f, 
  0x3b, 0xb3, 0xac, 0xbe, 0xea, 0x23, 0x85, 0xbe, 0xdd, 0x95, 0x22, 0x3f, 
  0xfb, 0x88, 0x14, 0xbf, 0xe0, 0xf5, 0x50, 0x3f, 0xb1, 0xe0, 0x6e, 0x3e, 
  0x2d, 0x37, 0x92, 0xbe, 0x08, 0x3f, 0x14, 0xbe, 0x64, 0x84, 0x98, 0xbe, 
  0x59, 0xf8, 0xe8, 0x3e, 0xa7, 0x6d, 0xa3, 0x3d, 0xf2, 0xfd, 0xff, 0xff, 
  0x04, 0x00, 0x00, 0x00, 0x00, 0x02, 0x00, 0x00, 0xf7, 0x21, 0xfd, 0xbc, 
  0x1a, 0xb6, 0xfc, 0x3e, 0x95, 0x08, 0xee, 0xbd, 0xaa, 0x99, 0x54, 0x3d, 
  0x3a, 0xeb, 0xa8, 0x3e, 0xf3, 0x00, 0x33, 0xbf, 0x5d, 0xb7, 0x25, 0x3f, 
  0x7a, 0x2c, 0x45, 0x3e, 0x23, 0x04, 0xb3, 0xbe, 0xe4, 0x12, 0x74, 0xbe, 
  0x6d, 0xea, 0x0a, 0x3f, 0x93, 0x55, 0xf8, 0xbe, 0x18, 0xde, 0x06, 0x3f, 
  0x3c, 0x4d, 0x07, 0xbe, 0xc3, 0x66, 0x2c, 0xbe, 0x1c, 0xee, 0x6a, 0x3e, 
  0xb5, 0x06, 0x37, 0x3e, 0x5c, 0xfe, 0xa6, 0x3e, 0x8c, 0xe0, 0x24, 0xbe, 
  0x51, 0xbe, 0xdc, 0x3e, 0xdb, 0xd0, 0xc3, 0xbd, 0xfc, 0x4e, 0x2c, 0xbf, 
  0x7f, 0x67, 0x49, 0x3f, 0x38, 0x30, 0x99, 0x3d, 0xc0, 0x45, 0xd7, 0x3c, 
  0x4b, 0xef, 0x54, 0xbf, 0xad, 0xdd, 0x44, 0xbe, 0x62, 0x6a, 0xa7, 0x3e, 
  0xc4, 0x6a, 0xf0, 0x3d, 0xf7, 0xf3, 0xb0, 0xbe, 0x82, 0xa3, 0xea, 0x3c, 
  0xa6, 0xb4, 0x81, 0x3d, 0x13, 0x70, 0xfe, 0xbc, 0xb0, 0xe5, 0x4b, 0x3e, 
  0x64, 0x2e, 0x3f, 0xbe, 0x79, 0x84, 0x83, 0x3c, 0xa2, 0x17, 0x20, 0x3e, 
  0x7e, 0xfb, 0xa2, 0x3d, 0xc9, 0x40, 0x8c, 0xbe, 0x0b, 0xab, 0x04, 0x3f, 
  0x54, 0x24, 0xbd, 0x3e, 0xd0, 0xc4, 0xcb, 0xbe, 0xb0, 0x51, 0xba, 0xbe, 
  0xe0, 0x71, 0x88, 0xbe, 0x20, 0x3b, 0x19, 0x3e, 0xbc, 0x88, 0xdc, 0x3e, 
  0xa8, 0x4f, 0x0b, 0xbe, 0xa8, 0x5d, 0xe4, 0xbe, 0x76, 0x82, 0xdc, 0xbd, 
  0xc4, 0x80, 0xc1, 0xbe, 0x5d, 0x4b, 0xfe, 0x3e, 0x22, 0x89, 0x8d, 0x3e, 
  0xcd, 0x4e, 0x1d, 0x3f, 0x21, 0x68, 0x10, 0x3f, 0x1e, 0x93, 0x9d, 0xbd, 
  0xdc, 0xe5, 0x52, 0xbe, 0x0c, 0x7f, 0xe5, 0x3e, 0x28, 0xd3, 0x57, 0xbe, 
  0x34, 0x74, 0xd8, 0xbe, 0x10, 0x8c, 0xa0, 0x3d, 0xfc, 0x95, 0xab, 0xbe, 
  0x18, 0xba, 0x28, 0xbe, 0x78, 0xdb, 0x12, 0xbe, 0x80, 0x09, 0x19, 0x3d, 
  0x1d, 0xf5, 0x15, 0x3f, 0x59, 0x6f, 0x8f, 0xbe, 0x8c, 0x53, 0xa1, 0x3d, 
  0x8d, 0x6f, 0x71, 0xbe, 0xf9, 0x10, 0xeb, 0x3e, 0xde, 0x7c, 0x9f, 0xbd, 
  0xaf, 0x00, 0x94, 0x3e, 0xde, 0x7f, 0x0f, 0xbb, 0x40, 0x61, 0xe1, 0xbd, 
  0xde, 0x6f, 0xee, 0x3e, 0x06, 0x42, 0xbf, 0xbe, 0xf9, 0xa1, 0x0a, 0x3f, 
  0x8f, 0x99, 0x88, 0xbf, 0x00, 0x12, 0x0a, 0xbc, 0x7b, 0x45, 0x89, 0xbd, 
  0xd0, 0x82, 0x16, 0xc0, 0x88, 0xf8, 0x0d, 0x3e, 0xe8, 0x6e, 0x13, 0xbe, 
  0xa0, 0xfe, 0x51, 0xbe, 0xa4, 0x3c, 0xfd, 0x3e, 0x40, 0x42, 0xb8, 0x3c, 
  0x20, 0xba, 0xfb, 0x3d, 0x30, 0x1e, 0xfe, 0xbe, 0x3c, 0x8c, 0x8f, 0xbe, 
  0xd3, 0x19, 0x9c, 0xbe, 0xa9, 0x86, 0x23, 0x3f, 0x9e, 0x64, 0x3a, 0xbe, 
  0xb3, 0xb3, 0x24, 0x3f, 0x12, 0x20, 0x8b, 0x3d, 0x5f, 0x71, 0x7c, 0x3e, 
  0x6f, 0x89, 0xe6, 0x3e, 0x71, 0xf7, 0xa6, 0x3a, 0xc1, 0xbb, 0x03, 0xbd, 
  0xa5, 0x7d, 0x29, 0x3f, 0x5a, 0x39, 0xcc, 0xbe, 0xee, 0x19, 0x19, 0x3f, 
  0xc3, 0xe9, 0x87, 0x3e, 0x1c, 0x3a, 0x1a, 0xbe, 0x03, 0x80, 0x06, 0xbe, 
  0x32, 0x2b, 0x8a, 0xbd, 0x20, 0x17, 0xa1, 0xbe, 0xac, 0x5f, 0xbc, 0xbe, 
  0x08, 0x9b, 0x1a, 0xbe, 0x20, 0x59, 0x81, 0xbd, 0x98, 0xe5, 0x53, 0xbe, 
  0xf8, 0x7b, 0xfa, 0xbe, 0x14, 0x16, 0xdf, 0xbe, 0x00, 0xef, 0xb1, 0x3e, 
  0xf3, 0x85, 0x26, 0x3f, 0xac, 0xfd, 0xc0, 0xbe, 0x1e, 0x8c, 0x6e, 0x3e, 
  0xbc, 0x87, 0x24, 0x3d, 0xec, 0x72, 0x0a, 0x3f, 0x64, 0xc5, 0x00, 0xbe, 
  0x98, 0xa6, 0xf3, 0x3d, 0x69, 0x79, 0x7b, 0xbe, 0xf2, 0xc9, 0xc0, 0xbe, 
  0x0a, 0xe2, 0x8b, 0x3d, 0xd9, 0xa1, 0xba, 0x3e, 0x93, 0x13, 0x89, 0x3e, 
  0xf1, 0x5f, 0x62, 0x3d, 0x40, 0xf3, 0x04, 0xbf, 0x7f, 0xc9, 0xa8, 0x3e, 
  0xea, 0xbe, 0xc1, 0x3e, 0x00, 0x00, 0x06, 0x00, 0x08, 0x00, 0x04, 0x00, 
  0x06, 0x00, 0x00, 0x00, 0x04, 0x00, 0x00, 0x00, 0x80, 0x00, 0x00, 0x00, 
  0x99, 0xc8, 0xc1, 0xbe, 0x20, 0x6e, 0x85, 0x3e, 0xb0, 0xb9, 0x24, 0xbf, 
  0xd3, 0xfc, 0x9b, 0x3e, 0xdb, 0xa1, 0xfb, 0x3e, 0x70, 0x15, 0xe6, 0x3e, 
  0x5c, 0x62, 0xbb, 0x3e, 0xdb, 0x59, 0x85, 0xbe, 0x13, 0xfb, 0x11, 0x3f, 
  0xe0, 0x49, 0xf4, 0xbe, 0x8c, 0x68, 0xf1, 0x3e, 0x3c, 0x7e, 0x15, 0xbc, 
  0xc8, 0x5e, 0x30, 0xbf, 0x1a, 0xfb, 0x8b, 0x3e, 0xee, 0x68, 0x8e, 0x3e, 
  0x0f, 0xe1, 0x3a, 0xbf, 0x9c, 0x05, 0xcc, 0xbe, 0x2a, 0xb6, 0x22, 0x3d, 
  0x0c, 0xc2, 0x0a, 0xbf, 0xd5, 0x5e, 0x95, 0x3f, 0x30, 0xcd, 0xb1, 0x3e, 
  0xc4, 0x8c, 0x99, 0x3e, 0x9f, 0xc3, 0x7d, 0x3e, 0xc8, 0x86, 0x52, 0x3e, 
  0x36, 0x20, 0xd8, 0x3c, 0x61, 0xd5, 0xe0, 0xbf, 0xc4, 0x6c, 0xa0, 0x3e, 
  0x69, 0xc0, 0x55, 0xbf, 0xea, 0x93, 0x9c, 0xbc, 0xea, 0x97, 0x04, 0x3f, 
  0x64, 0xa6, 0x1c, 0x3f, 0x02, 0x17, 0x1d, 0xbf, 0x90, 0xf6, 0xff, 0xff, 
  0x94, 0xf6, 0xff, 0xff, 0x0f, 0x00, 0x00, 0x00, 0x4d, 0x4c, 0x49, 0x52, 
  0x20, 0x43, 0x6f, 0x6e, 0x76, 0x65, 0x72, 0x74, 0x65, 0x64, 0x2e, 0x00, 
  0x01, 0x00, 0x00, 0x00, 0x14, 0x00, 0x00, 0x00, 0x00, 0x00, 0x0e, 0x00, 
  0x18, 0x00, 0x14, 0x00, 0x10, 0x00, 0x0c, 0x00, 0x08, 0x00, 0x04, 0x00, 
  0x0e, 0x00, 0x00, 0x00, 0x14, 0x00, 0x00, 0x00, 0x1c, 0x00, 0x00, 0x00, 
  0xb0, 0x01, 0x00, 0x00, 0xb4, 0x01, 0x00, 0x00, 0xb8, 0x01, 0x00, 0x00, 
  0x04, 0x00, 0x00, 0x00, 0x6d, 0x61, 0x69, 0x6e, 0x00, 0x00, 0x00, 0x00, 
  0x07, 0x00, 0x00, 0x00, 0x58, 0x01, 0x00, 0x00, 0x10, 0x01, 0x00, 0x00, 
  0xd8, 0x00, 0x00, 0x00, 0xa0, 0x00, 0x00, 0x00, 0x68, 0x00, 0x00, 0x00, 
  0x34, 0x00, 0x00, 0x00, 0x10, 0x00, 0x00, 0x00, 0x00, 0x00, 0x0a, 0x00, 
  0x10, 0x00, 0x0c, 0x00, 0x08, 0x00, 0x04, 0x00, 0x0a, 0x00, 0x00, 0x00, 
  0x0c, 0x00, 0x00, 0x00, 0x10, 0x00, 0x00, 0x00, 0x01, 0x00, 0x00, 0x00, 
  0x01, 0x00, 0x00, 0x00, 0x13, 0x00, 0x00, 0x00, 0x01, 0x00, 0x00, 0x00, 
  0x12, 0x00, 0x00, 0x00, 0xfe, 0xfe, 0xff, 0xff, 0x10, 0x00, 0x00, 0x00, 
  0x00, 0x00, 0x00, 0x08, 0x0c, 0x00, 0x00, 0x00, 0x10, 0x00, 0x00, 0x00, 
  0x48, 0xf7, 0xff, 0xff, 0x01, 0x00, 0x00, 0x00, 0x12, 0x00, 0x00, 0x00, 
  0x03, 0x00, 0x00, 0x00, 0x11, 0x00, 0x00, 0x00, 0x01, 0x00, 0x00, 0x00, 
  0x06, 0x00, 0x00, 0x00, 0x2e, 0xff, 0xff, 0xff, 0x10, 0x00, 0x00, 0x00, 
  0x00, 0x00, 0x00, 0x08, 0x10, 0x00, 0x00, 0x00, 0x14, 0x00, 0x00, 0x00, 
  0x1e, 0xff, 0xff, 0xff, 0x00, 0x00, 0x00, 0x01, 0x01, 0x00, 0x00, 0x00, 
  0x11, 0x00, 0x00, 0x00, 0x03, 0x00, 0x00, 0x00, 0x10, 0x00, 0x00, 0x00, 
  0x02, 0x00, 0x00, 0x00, 0x07, 0x00, 0x00, 0x00, 0x62, 0xff, 0xff, 0xff, 
  0x10, 0x00, 0x00, 0x00, 0x00, 0x00, 0x00, 0x08, 0x10, 0x00, 0x00, 0x00, 
  0x14, 0x00, 0x00, 0x00, 0x52, 0xff, 0xff, 0xff, 0x00, 0x00, 0x00, 0x01, 
  0x01, 0x00, 0x00, 0x00, 0x10, 0x00, 0x00, 0x00, 0x03, 0x00, 0x00, 0x00, 
  0x0f, 0x00, 0x00, 0x00, 0x03, 0x00, 0x00, 0x00, 0x08, 0x00, 0x00, 0x00, 
  0x96, 0xff, 0xff, 0xff, 0x10, 0x00, 0x00, 0x00, 0x00, 0x00, 0x00, 0x08, 
  0x10, 0x00, 0x00, 0x00, 0x14, 0x00, 0x00, 0x00, 0x86, 0xff, 0xff, 0xff, 
  0x00, 0x00, 0x00, 0x01, 0x01, 0x00, 0x00, 0x00, 0x0f, 0x00, 0x00, 0x00, 
  0x03, 0x00, 0x00, 0x00, 0x0e, 0x00, 0x00, 0x00, 0x04, 0x00, 0x00, 0x00, 
  0x09, 0x00, 0x00, 0x00, 0xca, 0xff, 0xff, 0xff, 0x10, 0x00, 0x00, 0x00, 
  0x00, 0x00, 0x00, 0x08, 0x10, 0x00, 0x00, 0x00, 0x14, 0x00, 0x00, 0x00, 
  0xba, 0xff, 0xff, 0xff, 0x00, 0x00, 0x00, 0x01, 0x01, 0x00, 0x00, 0x00, 
  0x0e, 0x00, 0x00, 0x00, 0x03, 0x00, 0x00, 0x00, 0x0d, 0x00, 0x00, 0x00, 
  0x05, 0x00, 0x00, 0x00, 0x0a, 0x00, 0x00, 0x00, 0x00, 0x00, 0x0e, 0x00, 
  0x16, 0x00, 0x00, 0x00, 0x10, 0x00, 0x0c, 0x00, 0x0b, 0x00, 0x04, 0x00, 
  0x0e, 0x00, 0x00, 0x00, 0x18, 0x00, 0x00, 0x00, 0x00, 0x00, 0x00, 0x08, 
  0x18, 0x00, 0x00, 0x00, 0x1c, 0x00, 0x00, 0x00, 0x00, 0x00, 0x06, 0x00, 
  0x08, 0x00, 0x07, 0x00, 0x06, 0x00, 0x00, 0x00, 0x00, 0x00, 0x00, 0x01, 
  0x01, 0x00, 0x00, 0x00, 0x0d, 0x00, 0x00, 0x00, 0x03, 0x00, 0x00, 0x00, 
  0x00, 0x00, 0x00, 0x00, 0x0c, 0x00, 0x00, 0x00, 0x0b, 0x00, 0x00, 0x00, 
  0x01, 0x00, 0x00, 0x00, 0x13, 0x00, 0x00, 0x00, 0x01, 0x00, 0x00, 0x00, 
  0x00, 0x00, 0x00, 0x00, 0x14, 0x00, 0x00, 0x00, 0x44, 0x07, 0x00, 0x00, 
  0xec, 0x06, 0x00, 0x00, 0x94, 0x06, 0x00, 0x00, 0x54, 0x06, 0x00, 0x00, 
  0x14, 0x06, 0x00, 0x00, 0xd4, 0x05, 0x00, 0x00, 0x98, 0x05, 0x00, 0x00, 
  0x5c, 0x05, 0x00, 0x00, 0x20, 0x05, 0x00, 0x00, 0xe4, 0x04, 0x00, 0x00, 
  0x88, 0x04, 0x00, 0x00, 0x30, 0x04, 0x00, 0x00, 0xe4, 0x03, 0x00, 0x00, 
  0x50, 0x03, 0x00, 0x00, 0xb4, 0x02, 0x00, 0x00, 0x18, 0x02, 0x00, 0x00, 
  0x7c, 0x01, 0x00, 0x00, 0xe0, 0x00, 0x00, 0x00, 0x60, 0x00, 0x00, 0x00, 
  0x04, 0x00, 0x00, 0x00, 0x22, 0xf9, 0xff, 0xff, 0x00, 0x00, 0x00, 0x01, 
  0x14, 0x00, 0x00, 0x00, 0x1c, 0x00, 0x00, 0x00, 0x1c, 0x00, 0x00, 0x00, 
  0x14, 0x00, 0x00, 0x00, 0x34, 0x00, 0x00, 0x00, 0x02, 0x00, 0x00, 0x00, 
  0xff, 0xff, 0xff, 0xff, 0x02, 0x00, 0x00, 0x00, 0x0c, 0xf9, 0xff, 0xff, 
  0x1b, 0x00, 0x00, 0x00, 0x53, 0x74, 0x61, 0x74, 0x65, 0x66, 0x75, 0x6c, 
  0x50, 0x61, 0x72, 0x74, 0x69, 0x74, 0x69, 0x6f, 0x6e, 0x65, 0x64, 0x43, 
  0x61, 0x6c, 0x6c, 0x5f, 0x31, 0x3a, 0x30, 0x00, 0x02, 0x00, 0x00, 0x00, 
  0x01, 0x00, 0x00, 0x00, 0x02, 0x00, 0x00, 0x00, 0x7a, 0xf9, 0xff, 0xff, 
  0x00, 0x00, 0x00, 0x01, 0x14, 0x00, 0x00, 0x00, 0x1c, 0x00, 0x00, 0x00, 
  0x1c, 0x00, 0x00, 0x00, 0x13, 0x00, 0x00, 0x00, 0x58, 0x00, 0x00, 0x00, 
  0x02, 0x00, 0x00, 0x00, 0xff, 0xff, 0xff, 0xff, 0x02, 0x00, 0x00, 0x00, 
  0x64, 0xf9, 0xff, 0xff, 0x3c, 0x00, 0x00, 0x00, 0x73, 0x65, 0x71, 0x75, 
  0x65, 0x6e, 0x74, 0x69, 0x61, 0x6c, 0x5f, 0x31, 0x2f, 0x64, 0x65, 0x6e, 
  0x73, 0x65, 0x5f, 0x35, 0x5f, 0x31, 0x2f, 0x4d, 0x61, 0x74, 0x4d, 0x75, 
  0x6c, 0x3b, 0x73, 0x65, 0x71, 0x75, 0x65, 0x6e, 0x74, 0x69, 0x61, 0x6c, 
  0x5f, 0x31, 0x2f, 0x64, 0x65, 0x6e, 0x73, 0x65, 0x5f, 0x35, 0x5f, 0x31, 
  0x2f, 0x42, 0x69, 0x61, 0x73, 0x41, 0x64, 0x64, 0x00, 0x00, 0x00, 0x00, 
  0x02, 0x00, 0x00, 0x00, 0x01, 0x00, 0x00, 0x00, 0x02, 0x00, 0x00, 0x00, 
  0xf6, 0xf9, 0xff, 0xff, 0x00, 0x00, 0x00, 0x01, 0x14, 0x00, 0x00, 0x00, 
  0x1c, 0x00, 0x00, 0x00, 0x1c, 0x00, 0x00, 0x00, 0x12, 0x00, 0x00, 0x00, 
  0x74, 0x00, 0x00, 0x00, 0x02, 0x00, 0x00, 0x00, 0xff, 0xff, 0xff, 0xff, 
  0x10, 0x00, 0x00, 0x00, 0xe0, 0xf9, 0xff, 0xff, 0x58, 0x00, 0x00, 0x00, 
  0x73, 0x65, 0x71, 0x75, 0x65, 0x6e, 0x74, 0x69, 0x61, 0x6c, 0x5f, 0x31, 
  0x2f, 0x64, 0x65, 0x6e, 0x73, 0x65, 0x5f, 0x34, 0x5f, 0x31, 0x2f, 0x4d, 
  0x61, 0x74, 0x4d, 0x75, 0x6c, 0x3b, 0x73, 0x65, 0x71, 0x75, 0x65, 0x6e, 
  0x74, 0x69, 0x61, 0x6c, 0x5f, 0x31, 0x2f, 0x64, 0x65, 0x6e, 0x73, 0x65, 
  0x5f, 0x34, 0x5f, 0x31, 0x2f, 0x52, 0x65, 0x6c, 0x75, 0x3b, 0x73, 0x65, 
  0x71, 0x75, 0x65, 0x6e, 0x74, 0x69, 0x61, 0x6c, 0x5f, 0x31, 0x2f, 0x64, 
  0x65, 0x6e, 0x73, 0x65, 0x5f, 0x34, 0x5f, 0x31, 0x2f, 0x42, 0x69, 0x61, 
  0x73, 0x41, 0x64, 0x64, 0x00, 0x00, 0x00, 0x00, 0x02, 0x00, 0x00, 0x00, 
  0x01, 0x00, 0x00, 0x00, 0x10, 0x00, 0x00, 0x00, 0x8e, 0xfa, 0xff, 0xff, 
  0x00, 0x00, 0x00, 0x01, 0x14, 0x00, 0x00, 0x00, 0x1c, 0x00, 0x00, 0x00, 
  0x1c, 0x00, 0x00, 0x00, 0x11, 0x00, 0x00, 0x00, 0x74, 0x00, 0x00, 0x00, 
  0x02, 0x00, 0x00, 0x00, 0xff, 0xff, 0xff, 0xff, 0x08, 0x00, 0x00, 0x00, 
  0x78, 0xfa, 0xff, 0xff, 0x58, 0x00, 0x00, 0x00, 0x73, 0x65, 0x71, 0x75, 
  0x65, 0x6e, 0x74, 0x69, 0x61, 0x6c, 0x5f, 0x31, 0x2f, 0x64, 0x65, 0x6e, 
  0x73, 0x65, 0x5f, 0x33, 0x5f, 0x31, 0x2f, 0x4d, 0x61, 0x74, 0x4d, 0x75, 
  0x6c, 0x3b, 0x73, 0x65, 0x71, 0x75, 0x65, 0x6e, 0x74, 0x69, 0x61, 0x6c, 
  0x5f, 0x31, 0x2f, 0x64, 0x65, 0x6e, 0x73, 0x65, 0x5f, 0x33, 0x5f, 0x31, 
  0x2f, 0x52, 0x65, 0x6c, 0x75, 0x3b, 0x73, 0x65, 0x71, 0x75, 0x65, 0x6e, 
  0x74, 0x69, 0x61, 0x6c, 0x5f, 0x31, 0x2f, 0x64, 0x65, 0x6e, 0x73, 0x65, 
  0x5f, 0x33, 0x5f, 0x31, 0x2f, 0x42, 0x69, 0x61, 0x73, 0x41, 0x64, 0x64, 
  0x00, 0x00, 0x00, 0x00, 0x02, 0x00, 0x00, 0x00, 0x01, 0x00, 0x00, 0x00, 
  0x08, 0x00, 0x00, 0x00, 0x26, 0xfb, 0xff, 0xff, 0x00, 0x00, 0x00, 0x01, 
  0x14, 0x00, 0x00, 0x00, 0x1c, 0x00, 0x00, 0x00, 0x1c, 0x00, 0x00, 0x00, 
  0x10, 0x00, 0x00, 0x00, 0x74, 0x00, 0x00, 0x00, 0x02, 0x00, 0x00, 0x00, 
  0xff, 0xff, 0xff, 0xff, 0x04, 0x00, 0x00, 0x00, 0x10, 0xfb, 0xff, 0xff, 
  0x58, 0x00, 0x00, 0x00, 0x73, 0x65, 0x71, 0x75, 0x65, 0x6e, 0x74, 0x69, 
  0x61, 0x6c, 0x5f, 0x31, 0x2f, 0x64, 0x65, 0x6e, 0x73, 0x65, 0x5f, 0x32, 
  0x5f, 0x31, 0x2f, 0x4d, 0x61, 0x74, 0x4d, 0x75, 0x6c, 0x3b, 0x73, 0x65, 
  0x71, 0x75, 0x65, 0x6e, 0x74, 0x69, 0x61, 0x6c, 0x5f, 0x31, 0x2f, 0x64, 
  0x65, 0x6e, 0x73, 0x65, 0x5f, 0x32, 0x5f, 0x31, 0x2f, 0x52, 0x65, 0x6c, 
  0x75, 0x3b, 0x73, 0x65, 0x71, 0x75, 0x65, 0x6e, 0x74, 0x69, 0x61, 0x6c, 
  0x5f, 0x31, 0x2f, 0x64, 0x65, 0x6e, 0x73, 0x65, 0x5f, 0x32, 0x5f, 0x31, 
  0x2f, 0x42, 0x69, 0x61, 0x73, 0x41, 0x64, 0x64, 0x00, 0x00, 0x00, 0x00, 
  0x02, 0x00, 0x00, 0x00, 0x01, 0x00, 0x00, 0x00, 0x04, 0x00, 0x00, 0x00, 
  0xbe, 0xfb, 0xff, 0xff, 0x00, 0x00, 0x00, 0x01, 0x14, 0x00, 0x00, 0x00, 
  0x1c, 0x00, 0x00, 0x00, 0x1c, 0x00, 0x00, 0x00, 0x0f, 0x00, 0x00, 0x00, 
  0x74, 0x00, 0x00, 0x00, 0x02, 0x00, 0x00, 0x00, 0xff, 0xff, 0xff, 0xff, 
  0x08, 0x00, 0x00, 0x00, 0xa8, 0xfb, 0xff, 0xff, 0x58, 0x00, 0x00, 0x00, 
  0x73, 0x65, 0x71, 0x75, 0x65, 0x6e, 0x74, 0x69, 0x61, 0x6c, 0x5f, 0x31, 
  0x2f, 0x64, 0x65, 0x6e, 0x73, 0x65, 0x5f, 0x31, 0x5f, 0x32, 0x2f, 0x4d, 
  0x61, 0x74, 0x4d, 0x75, 0x6c, 0x3b, 0x73, 0x65, 0x71, 0x75, 0x65, 0x6e, 
  0x74, 0x69, 0x61, 0x6c, 0x5f, 0x31, 0x2f, 0x64, 0x65, 0x6e, 0x73, 0x65, 
  0x5f, 0x31, 0x5f, 0x32, 0x2f, 0x52, 0x65, 0x6c, 0x75, 0x3b, 0x73, 0x65, 
  0x71, 0x75, 0x65, 0x6e, 0x74, 0x69, 0x61, 0x6c, 0x5f, 0x31, 0x2f, 0x64, 
  0x65, 0x6e, 0x73, 0x65, 0x5f, 0x31, 0x5f, 0x32, 0x2f, 0x42, 0x69, 0x61, 
  0x73, 0x41, 0x64, 0x64, 0x00, 0x00, 0x00, 0x00, 0x02, 0x00, 0x00, 0x00, 
  0x01, 0x00, 0x00, 0x00, 0x08, 0x00, 0x00, 0x00, 0x56, 0xfc, 0xff, 0xff, 
  0x00, 0x00, 0x00, 0x01, 0x14, 0x00, 0x00, 0x00, 0x1c, 0x00, 0x00, 0x00, 
  0x1c, 0x00, 0x00, 0x00, 0x0e, 0x00, 0x00, 0x00, 0x6c, 0x00, 0x00, 0x00, 
  0x02, 0x00, 0x00, 0x00, 0xff, 0xff, 0xff, 0xff, 0x10, 0x00, 0x00, 0x00, 
  0x40, 0xfc, 0xff, 0xff, 0x52, 0x00, 0x00, 0x00, 0x73, 0x65, 0x71, 0x75, 
  0x65, 0x6e, 0x74, 0x69, 0x61, 0x6c, 0x5f, 0x31, 0x2f, 0x64, 0x65, 0x6e, 
  0x73, 0x65, 0x5f, 0x31, 0x2f, 0x4d, 0x61, 0x74, 0x4d, 0x75, 0x6c, 0x3b, 
  0x73, 0x65, 0x71, 0x75, 0x65, 0x6e, 0x74, 0x69, 0x61, 0x6c, 0x5f, 0x31, 
  0x2f, 0x64, 0x65, 0x6e, 0x73, 0x65, 0x5f, 0x31, 0x2f, 0x52, 0x65, 0x6c, 
  0x75, 0x3b, 0x73, 0x65, 0x71, 0x75, 0x65, 0x6e, 0x74, 0x69, 0x61, 0x6c, 
  0x5f, 0x31, 0x2f, 0x64, 0x65, 0x6e, 0x73, 0x65, 0x5f, 0x31, 0x2f, 0x42, 
  0x69, 0x61, 0x73, 0x41, 0x64, 0x64, 0x00, 0x00, 0x02, 0x00, 0x00, 0x00, 
  0x01, 0x00, 0x00, 0x00, 0x10, 0x00, 0x00, 0x00, 0x3a, 0xfd, 0xff, 0xff, 
  0x00, 0x00, 0x00, 0x01, 0x10, 0x00, 0x00, 0x00, 0x10, 0x00, 0x00, 0x00, 
  0x0d, 0x00, 0x00, 0x00, 0x28, 0x00, 0x00, 0x00, 0xc0, 0xfc, 0xff, 0xff, 
  0x1b, 0x00, 0x00, 0x00, 0x73, 0x65, 0x71, 0x75, 0x65, 0x6e, 0x74, 0x69, 
  0x61, 0x6c, 0x5f, 0x31, 0x2f, 0x64, 0x65, 0x6e, 0x73, 0x65, 0x5f, 0x31, 
  0x2f, 0x4d, 0x61, 0x74, 0x4d, 0x75, 0x6c, 0x00, 0x02, 0x00, 0x00, 0x00, 
  0x10, 0x00, 0x00, 0x00, 0x02, 0x00, 0x00, 0x00, 0x82, 0xfd, 0xff, 0xff, 
  0x00, 0x00, 0x00, 0x01, 0x10, 0x00, 0x00, 0x00, 0x10, 0x00, 0x00, 0x00, 
  0x0c, 0x00, 0x00, 0x00, 0x38, 0x00, 0x00, 0x00, 0x08, 0xfd, 0xff, 0xff, 
  0x2b, 0x00, 0x00, 0x00, 0x73, 0x65, 0x71, 0x75, 0x65, 0x6e, 0x74, 0x69, 
  0x61, 0x6c, 0x5f, 0x31, 0x2f, 0x64, 0x65, 0x6e, 0x73, 0x65, 0x5f, 0x31, 
  0x2f, 0x42, 0x69, 0x61, 0x73, 0x41, 0x64, 0x64, 0x2f, 0x52, 0x65, 0x61, 
  0x64, 0x56, 0x61, 0x72, 0x69, 0x61, 0x62, 0x6c, 0x65, 0x4f, 0x70, 0x00, 
  0x01, 0x00, 0x00, 0x00, 0x10, 0x00, 0x00, 0x00, 0xd6, 0xfd, 0xff, 0xff, 
  0x00, 0x00, 0x00, 0x01, 0x10, 0x00, 0x00, 0x00, 0x10, 0x00, 0x00, 0x00, 
  0x0b, 0x00, 0x00, 0x00, 0x3c, 0x00, 0x00, 0x00, 0x5c, 0xfd, 0xff, 0xff, 
  0x2d, 0x00, 0x00, 0x00, 0x73, 0x65, 0x71, 0x75, 0x65, 0x6e, 0x74, 0x69, 
  0x61, 0x6c, 0x5f, 0x31, 0x2f, 0x64, 0x65, 0x6e, 0x73, 0x65, 0x5f, 0x31, 
  0x5f, 0x32, 0x2f, 0x42, 0x69, 0x61, 0x73, 0x41, 0x64, 0x64, 0x2f, 0x52, 
  0x65, 0x61, 0x64, 0x56, 0x61, 0x72, 0x69, 0x61, 0x62, 0x6c, 0x65, 0x4f, 
  0x70, 0x00, 0x00, 0x00, 0x01, 0x00, 0x00, 0x00, 0x08, 0x00, 0x00, 0x00, 
  0x2e, 0xfe, 0xff, 0xff, 0x00, 0x00, 0x00, 0x01, 0x10, 0x00, 0x00, 0x00, 
  0x10, 0x00, 0x00, 0x00, 0x0a, 0x00, 0x00, 0x00, 0x1c, 0x00, 0x00, 0x00, 
  0xb4, 0xfd, 0xff, 0xff, 0x0f, 0x00, 0x00, 0x00, 0x61, 0x72, 0x69, 0x74, 
  0x68, 0x2e, 0x63, 0x6f, 0x6e, 0x73, 0x74, 0x61, 0x6e, 0x74, 0x38, 0x00, 
  0x01, 0x00, 0x00, 0x00, 0x04, 0x00, 0x00, 0x00, 0x66, 0xfe, 0xff, 0xff, 
  0x00, 0x00, 0x00, 0x01, 0x10, 0x00, 0x00, 0x00, 0x10, 0x00, 0x00, 0x00, 
  0x09, 0x00, 0x00, 0x00, 0x1c, 0x00, 0x00, 0x00, 0xec, 0xfd, 0xff, 0xff, 
  0x0f, 0x00, 0x00, 0x00, 0x61, 0x72, 0x69, 0x74, 0x68, 0x2e, 0x63, 0x6f, 
  0x6e, 0x73, 0x74, 0x61, 0x6e, 0x74, 0x37, 0x00, 0x01, 0x00, 0x00, 0x00, 
  0x08, 0x00, 0x00, 0x00, 0x9e, 0xfe, 0xff, 0xff, 0x00, 0x00, 0x00, 0x01, 
  0x10, 0x00, 0x00, 0x00, 0x10, 0x00, 0x00, 0x00, 0x08, 0x00, 0x00, 0x00, 
  0x1c, 0x00, 0x00, 0x00, 0x24, 0xfe, 0xff, 0xff, 0x0f, 0x00, 0x00, 0x00, 
  0x61, 0x72, 0x69, 0x74, 0x68, 0x2e, 0x63, 0x6f, 0x6e, 0x73, 0x74, 0x61, 
  0x6e, 0x74, 0x36, 0x00, 0x01, 0x00, 0x00, 0x00, 0x10, 0x00, 0x00, 0x00, 
  0xd6, 0xfe, 0xff, 0xff, 0x00, 0x00, 0x00, 0x01, 0x10, 0x00, 0x00, 0x00, 
  0x10, 0x00, 0x00, 0x00, 0x07, 0x00, 0x00, 0x00, 0x1c, 0x00, 0x00, 0x00, 
  0x5c, 0xfe, 0xff, 0xff, 0x0f, 0x00, 0x00, 0x00, 0x61, 0x72, 0x69, 0x74, 
  0x68, 0x2e, 0x63, 0x6f, 0x6e, 0x73, 0x74, 0x61, 0x6e, 0x74, 0x35, 0x00, 
  0x01, 0x00, 0x00, 0x00, 0x02, 0x00, 0x00, 0x00, 0x0e, 0xff, 0xff, 0xff, 
  0x00, 0x00, 0x00, 0x01, 0x10, 0x00, 0x00, 0x00, 0x10, 0x00, 0x00, 0x00, 
  0x06, 0x00, 0x00, 0x00, 0x1c, 0x00, 0x00, 0x00, 0x94, 0xfe, 0xff, 0xff, 
  0x0f, 0x00, 0x00, 0x00, 0x61, 0x72, 0x69, 0x74, 0x68, 0x2e, 0x63, 0x6f, 
  0x6e, 0x73, 0x74, 0x61, 0x6e, 0x74, 0x34, 0x00, 0x02, 0x00, 0x00, 0x00, 
  0x08, 0x00, 0x00, 0x00, 0x10, 0x00, 0x00, 0x00, 0x4a, 0xff, 0xff, 0xff, 
  0x00, 0x00, 0x00, 0x01, 0x10, 0x00, 0x00, 0x00, 0x10, 0x00, 0x00, 0x00, 
  0x05, 0x00, 0x00, 0x00, 0x1c, 0x00, 0x00, 0x00, 0xd0, 0xfe, 0xff, 0xff, 
  0x0f, 0x00, 0x00, 0x00, 0x61, 0x72, 0x69, 0x74, 0x68, 0x2e, 0x63, 0x6f, 
  0x6e, 0x73, 0x74, 0x61, 0x6e, 0x74, 0x33, 0x00, 0x02, 0x00, 0x00, 0x00, 
  0x04, 0x00, 0x00, 0x00, 0x08, 0x00, 0x00, 0x00, 0x86, 0xff, 0xff, 0xff, 
  0x00, 0x00, 0x00, 0x01, 0x10, 0x00, 0x00, 0x00, 0x10, 0x00, 0x00, 0x00, 
  0x04, 0x00, 0x00, 0x00, 0x1c, 0x00, 0x00, 0x00, 0x0c, 0xff, 0xff, 0xff, 
  0x0f, 0x00, 0x00, 0x00, 0x61, 0x72, 0x69, 0x74, 0x68, 0x2e, 0x63, 0x6f, 
  0x6e, 0x73, 0x74, 0x61, 0x6e, 0x74, 0x32, 0x00, 0x02, 0x00, 0x00, 0x00, 
  0x08, 0x00, 0x00, 0x00, 0x04, 0x00, 0x00, 0x00, 0xc2, 0xff, 0xff, 0xff, 
  0x00, 0x00, 0x00, 0x01, 0x10, 0x00, 0x00, 0x00, 0x10, 0x00, 0x00, 0x00, 
  0x03, 0x00, 0x00, 0x00, 0x1c, 0x00, 0x00, 0x00, 0x48, 0xff, 0xff, 0xff, 
  0x0f, 0x00, 0x00, 0x00, 0x61, 0x72, 0x69, 0x74, 0x68, 0x2e, 0x63, 0x6f, 
  0x6e, 0x73, 0x74, 0x61, 0x6e, 0x74, 0x31, 0x00, 0x02, 0x00, 0x00, 0x00, 
  0x10, 0x00, 0x00, 0x00, 0x08, 0x00, 0x00, 0x00, 0x00, 0x00, 0x16, 0x00, 
  0x18, 0x00, 0x14, 0x00, 0x00, 0x00, 0x10, 0x00, 0x0c, 0x00, 0x08, 0x00, 
  0x00, 0x00, 0x00, 0x00, 0x00, 0x00, 0x07, 0x00, 0x16, 0x00, 0x00, 0x00, 
  0x00, 0x00, 0x00, 0x01, 0x10, 0x00, 0x00, 0x00, 0x10, 0x00, 0x00, 0x00, 
  0x02, 0x00, 0x00, 0x00, 0x1c, 0x00, 0x00, 0x00, 0x9c, 0xff, 0xff, 0xff, 
  0x0e, 0x00, 0x00, 0x00, 0x61, 0x72, 0x69, 0x74, 0x68, 0x2e, 0x63, 0x6f, 
  0x6e, 0x73, 0x74, 0x61, 0x6e, 0x74, 0x00, 0x00, 0x02, 0x00, 0x00, 0x00, 
  0x02, 0x00, 0x00, 0x00, 0x10, 0x00, 0x00, 0x00, 0x00, 0x00, 0x16, 0x00, 
  0x1c, 0x00, 0x18, 0x00, 0x00, 0x00, 0x14, 0x00, 0x10, 0x00, 0x0c, 0x00, 
  0x00, 0x00, 0x00, 0x00, 0x08, 0x00, 0x07, 0x00, 0x16, 0x00, 0x00, 0x00, 
  0x00, 0x00, 0x00, 0x01, 0x14, 0x00, 0x00, 0x00, 0x20, 0x00, 0x00, 0x00, 
  0x20, 0x00, 0x00, 0x00, 0x01, 0x00, 0x00, 0x00, 0x3c, 0x00, 0x00, 0x00, 
  0x02, 0x00, 0x00, 0x00, 0xff, 0xff, 0xff, 0xff, 0x02, 0x00, 0x00, 0x00, 
  0x04, 0x00, 0x04, 0x00, 0x04, 0x00, 0x00, 0x00, 0x1e, 0x00, 0x00, 0x00, 
  0x73, 0x65, 0x72, 0x76, 0x69, 0x6e, 0x67, 0x5f, 0x64, 0x65, 0x66, 0x61, 
  0x75, 0x6c, 0x74, 0x5f, 0x6b, 0x65, 0x72, 0x61, 0x73, 0x5f, 0x74, 0x65, 
  0x6e, 0x73, 0x6f, 0x72, 0x3a, 0x30, 0x00, 0x00, 0x02, 0x00, 0x00, 0x00, 
  0x01, 0x00, 0x00, 0x00, 0x02, 0x00, 0x00, 0x00, 0x02, 0x00, 0x00, 0x00, 
  0x20, 0x00, 0x00, 0x00, 0x04, 0x00, 0x00, 0x00, 0xf4, 0xff, 0xff, 0xff, 
  0x0e, 0x00, 0x00, 0x00, 0x00, 0x00, 0x00, 0x0e, 0x0c, 0x00, 0x0c, 0x00, 
  0x0b, 0x00, 0x00, 0x00, 0x00, 0x00, 0x04, 0x00, 0x0c, 0x00, 0x00, 0x00, 
  0x09, 0x00, 0x00, 0x00, 0x00, 0x00, 0x00, 0x09, 
};

#endif // ANOMALYMODEL_H
